/*
 * Filter Coefficients (C Source) generated by the Filter Design and Analysis Tool
 * Generated by MATLAB(R) 9.3 and Signal Processing Toolbox 7.5.
 * Generated on: 18-Apr-2018 00:36:58
 */

/*
 * Discrete-Time FIR Filter (real)
 * -------------------------------
 * Filter Structure  : Direct-Form FIR
 * Filter Length     : 146
 * Stable            : Yes
 * Linear Phase      : Yes (Type 2)
 */

/* General type conversion for MATLAB generated C-code  */
//#include "tmwtypes.h"
/*
 * Expected path to tmwtypes.h 
 * /Applications/MATLAB_R2017b.app/extern/include/tmwtypes.h 
 */
const int FILTER_LEN = 146;
const double B[146] = {
  -0.0009227182293648,-0.0004146576869605,-0.0004882186114874,-0.0005541689612865,
  -0.0006073491115439,-0.0006421328722782,-0.0006529967695541,-0.0006343277084091,
  -0.0005805449467737,-0.0004860877384249,-0.0003462909339963,-0.0001580894169898,
   8.03972306359e-05,0.0003705525931062, 0.000711994472326, 0.001099679348729,
   0.001531048618346, 0.001997813917503, 0.002491236582861, 0.003000290455055,
   0.003511507879019, 0.004010588491718,  0.00448117247962, 0.004906432937503,
    0.00526847875558, 0.005550291297039, 0.005734810525029, 0.005806425433969,
   0.005751084451047, 0.005558034990968, 0.005218241371941, 0.004727669718512,
   0.004085327191485, 0.003295432375125, 0.002366745650291, 0.001313037926092,
  0.0001530606342655, -0.00108939938047,-0.002385991382831,-0.003704201254688,
  -0.005007844316627,-0.006257610240189,-0.007412311303221,-0.008429523394213,
  -0.009266620646486,-0.009882193130241, -0.01023680460481, -0.01029443292897,
   -0.01002362618181,-0.009398146568648,-0.008398553729523, -0.00701243749414,
  -0.005235690355621,-0.003072343500386,-0.0005355853393263, 0.002352740539878,
   0.005561853434629, 0.009052759111274,  0.01277847110788,   0.0166852684016,
    0.02071321797643,  0.02479788911011,  0.02887129765066,  0.03286356239102,
    0.03670443831133,   0.0403248399965,  0.04365854339841,  0.04664352895235,
    0.04922369873632,    0.051349993289,  0.05298170819626,  0.05408738903811,
    0.05464563628666,  0.05464563628666,  0.05408738903811,  0.05298170819626,
      0.051349993289,  0.04922369873632,  0.04664352895235,  0.04365854339841,
     0.0403248399965,  0.03670443831133,  0.03286356239102,  0.02887129765066,
    0.02479788911011,  0.02071321797643,   0.0166852684016,  0.01277847110788,
   0.009052759111274, 0.005561853434629, 0.002352740539878,-0.0005355853393263,
  -0.003072343500386,-0.005235690355621, -0.00701243749414,-0.008398553729523,
  -0.009398146568648, -0.01002362618181, -0.01029443292897, -0.01023680460481,
  -0.009882193130241,-0.009266620646486,-0.008429523394213,-0.007412311303221,
  -0.006257610240189,-0.005007844316627,-0.003704201254688,-0.002385991382831,
   -0.00108939938047,0.0001530606342655, 0.001313037926092, 0.002366745650291,
   0.003295432375125, 0.004085327191485, 0.004727669718512, 0.005218241371941,
   0.005558034990968, 0.005751084451047, 0.005806425433969, 0.005734810525029,
   0.005550291297039,  0.00526847875558, 0.004906432937503,  0.00448117247962,
   0.004010588491718, 0.003511507879019, 0.003000290455055, 0.002491236582861,
   0.001997813917503, 0.001531048618346, 0.001099679348729, 0.000711994472326,
  0.0003705525931062, 8.03972306359e-05,-0.0001580894169898,-0.0003462909339963,
  -0.0004860877384249,-0.0005805449467737,-0.0006343277084091,-0.0006529967695541,
  -0.0006421328722782,-0.0006073491115439,-0.0005541689612865,-0.0004882186114874,
  -0.0004146576869605,-0.0009227182293648
};

const int FILTER_LEN_48000 = 159;
const double B1[159] = {
  -0.0009032506344579,-0.0003775002306826,-0.0004413396434757,-0.0005003394444498,
  -0.0005507338705092,-0.000588868696281,-0.0006104488071561,-0.000611543825548,
  -0.0005878713343511,-0.0005357311857472,-0.0004512916654481,-0.0003316036411198,
  -0.0001739940135606,2.294753664037e-05,0.0002601350593885,0.0005367860192826,
  0.0008515022817034, 0.001201055039232, 0.001581354465583, 0.001986583527235,
   0.002409729186034, 0.002842159296316, 0.003274298916851, 0.003695176528692,
   0.004093676761825,  0.00445747584036, 0.004774346515772, 0.005031301641373,
   0.005216296233857, 0.005317605501507, 0.005325510997175, 0.005230583391209,
   0.005025517733567, 0.004704553277806, 0.004266936188568, 0.003711494914087,
   0.003041212851021, 0.002263940949476, 0.001387611269359,0.0004264090322162,
   -0.00060427049238,-0.001684695758967,-0.002793026302427,-0.003904311235833,
  -0.004991842923507,-0.006026930224723,-0.006979933709285,-0.007820375305614,
  -0.008518016983852, -0.00904324115792,-0.009367960645036,-0.009466298644692,
  -0.009314900173224,-0.008894194864246,-0.008188271740802,-0.007186205704447,
  -0.005882067678431,-0.004275120601035,-0.002370450222485,-0.0001788749973291,
   0.002282973140804, 0.004992554356925, 0.007922025107356,  0.01103847978656,
    0.01430434273195,  0.01767773677066,  0.02111373194577,   0.0245648571831,
    0.02798174256932,  0.03131404910895,  0.03451236038342,  0.03752729466292,
    0.04031246592707,  0.04282402265017,  0.04502188798455,  0.04687098492996,
    0.04834128386237,  0.04940907903051,  0.05005681436548,  0.05027394665709,
    0.05005681436548,  0.04940907903051,  0.04834128386237,  0.04687098492996,
    0.04502188798455,  0.04282402265017,  0.04031246592707,  0.03752729466292,
    0.03451236038342,  0.03131404910895,  0.02798174256932,   0.0245648571831,
    0.02111373194577,  0.01767773677066,  0.01430434273195,  0.01103847978656,
   0.007922025107356, 0.004992554356925, 0.002282973140804,-0.0001788749973291,
  -0.002370450222485,-0.004275120601035,-0.005882067678431,-0.007186205704447,
  -0.008188271740802,-0.008894194864246,-0.009314900173224,-0.009466298644692,
  -0.009367960645036, -0.00904324115792,-0.008518016983852,-0.007820375305614,
  -0.006979933709285,-0.006026930224723,-0.004991842923507,-0.003904311235833,
  -0.002793026302427,-0.001684695758967, -0.00060427049238,0.0004264090322162,
   0.001387611269359, 0.002263940949476, 0.003041212851021, 0.003711494914087,
   0.004266936188568, 0.004704553277806, 0.005025517733567, 0.005230583391209,
   0.005325510997175, 0.005317605501507, 0.005216296233857, 0.005031301641373,
   0.004774346515772,  0.00445747584036, 0.004093676761825, 0.003695176528692,
   0.003274298916851, 0.002842159296316, 0.002409729186034, 0.001986583527235,
   0.001581354465583, 0.001201055039232,0.0008515022817034,0.0005367860192826,
  0.0002601350593885,2.294753664037e-05,-0.0001739940135606,-0.0003316036411198,
  -0.0004512916654481,-0.0005357311857472,-0.0005878713343511,-0.000611543825548,
  -0.0006104488071561,-0.000588868696281,-0.0005507338705092,-0.0005003394444498,
  -0.0004413396434757,-0.0003775002306826,-0.0009032506344579
};
